#ifndef THERMO_MODEL_H
#define THERMO_MODEL_H


unsigned int thermo_model_len = 3152;
unsigned char thermo_model[] = {
 0x20, 0x00, 0x00, 0x00, 0x54, 0x46, 0x4c, 0x33, 0x00, 0x00, 0x00, 0x00,
  0x00, 0x00, 0x12, 0x00, 0x1c, 0x00, 0x04, 0x00, 0x08, 0x00, 0x0c, 0x00,
  0x10, 0x00, 0x14, 0x00, 0x00, 0x00, 0x18, 0x00, 0x12, 0x00, 0x00, 0x00,
  0x03, 0x00, 0x00, 0x00, 0x04, 0x0c, 0x00, 0x00, 0x30, 0x07, 0x00, 0x00,
  0x18, 0x07, 0x00, 0x00, 0x3c, 0x00, 0x00, 0x00, 0x04, 0x00, 0x00, 0x00,
  0x01, 0x00, 0x00, 0x00, 0x0c, 0x00, 0x00, 0x00, 0x08, 0x00, 0x0c, 0x00,
  0x04, 0x00, 0x08, 0x00, 0x08, 0x00, 0x00, 0x00, 0x08, 0x00, 0x00, 0x00,
  0x0b, 0x00, 0x00, 0x00, 0x13, 0x00, 0x00, 0x00, 0x6d, 0x69, 0x6e, 0x5f,
  0x72, 0x75, 0x6e, 0x74, 0x69, 0x6d, 0x65, 0x5f, 0x76, 0x65, 0x72, 0x73,
  0x69, 0x6f, 0x6e, 0x00, 0x0c, 0x00, 0x00, 0x00, 0xc8, 0x06, 0x00, 0x00,
  0xb4, 0x06, 0x00, 0x00, 0x58, 0x06, 0x00, 0x00, 0xf4, 0x05, 0x00, 0x00,
  0xe0, 0x05, 0x00, 0x00, 0xcc, 0x04, 0x00, 0x00, 0xb8, 0x00, 0x00, 0x00,
  0x64, 0x00, 0x00, 0x00, 0x58, 0x00, 0x00, 0x00, 0x44, 0x00, 0x00, 0x00,
  0x30, 0x00, 0x00, 0x00, 0x04, 0x00, 0x00, 0x00, 0xd6, 0xf9, 0xff, 0xff,
  0x04, 0x00, 0x00, 0x00, 0x10, 0x00, 0x00, 0x00, 0x31, 0x2e, 0x35, 0x2e,
  0x30, 0x00, 0x00, 0x00, 0x00, 0x00, 0x00, 0x00, 0x00, 0x00, 0x00, 0x00,
  0x00, 0x00, 0x00, 0x00, 0x00, 0x00, 0x00, 0x00, 0x00, 0x00, 0x00, 0x00,
  0xc4, 0xf4, 0xff, 0xff, 0x00, 0x00, 0x00, 0x00, 0x00, 0x00, 0x00, 0x00,
  0x00, 0x00, 0x00, 0x00, 0xd4, 0xf4, 0xff, 0xff, 0x00, 0x00, 0x00, 0x00,
  0x00, 0x00, 0x00, 0x00, 0x00, 0x00, 0x00, 0x00, 0xe4, 0xf4, 0xff, 0xff,
  0x00, 0x00, 0x00, 0x00, 0x26, 0xfa, 0xff, 0xff, 0x04, 0x00, 0x00, 0x00,
  0x40, 0x00, 0x00, 0x00, 0x4a, 0x37, 0xa5, 0x3f, 0x51, 0xca, 0xc2, 0x3f,
  0xf0, 0x93, 0xe1, 0x3d, 0x55, 0xa0, 0x0e, 0xc1, 0x7c, 0x11, 0x08, 0x40,
  0xa0, 0xe8, 0xc4, 0xbe, 0xdd, 0x99, 0x71, 0x3f, 0x8b, 0x33, 0xdd, 0x3f,
  0x18, 0xb5, 0x91, 0xc0, 0x74, 0x61, 0x8d, 0xbc, 0x00, 0xdb, 0x65, 0x3b,
  0x3c, 0xc1, 0xc4, 0xc0, 0x57, 0x73, 0xd0, 0xbf, 0x0e, 0x36, 0xf7, 0xbe,
  0x05, 0xdc, 0x8a, 0xbf, 0xe7, 0x3e, 0xc4, 0xc0, 0x00, 0x00, 0x00, 0x00,
  0x76, 0xfa, 0xff, 0xff, 0x04, 0x00, 0x00, 0x00, 0x00, 0x04, 0x00, 0x00,
  0x0d, 0xdd, 0x8a, 0x3c, 0x3d, 0x1d, 0xec, 0x3e, 0xe2, 0xba, 0x57, 0xbe,
  0xbd, 0xe7, 0xe9, 0x3e, 0x81, 0x01, 0x0a, 0x3e, 0xf0, 0xe8, 0x37, 0x3d,
  0x71, 0xee, 0x91, 0x3e, 0x06, 0xef, 0x91, 0xbe, 0xa2, 0x23, 0xe3, 0x3e,
  0x2d, 0x59, 0x3d, 0x3f, 0x86, 0x84, 0x23, 0x3f, 0x38, 0x07, 0x68, 0xbe,
  0x08, 0x07, 0x14, 0xbf, 0x2d, 0xd7, 0x51, 0xbe, 0x8a, 0x78, 0x41, 0x3e,
  0xb4, 0x1b, 0x92, 0x3d, 0xbf, 0x8f, 0x8e, 0xbe, 0x88, 0x76, 0x8d, 0x3d,
  0x0e, 0x69, 0x15, 0x3e, 0x5d, 0xd6, 0x29, 0x3e, 0xb9, 0xbd, 0x31, 0x3f,
  0x27, 0x60, 0x98, 0xbe, 0x3c, 0x97, 0x34, 0x3e, 0x37, 0x1f, 0xd4, 0x3e,
  0xff, 0x1d, 0xce, 0x3e, 0xca, 0x4f, 0x40, 0x3f, 0x9b, 0x4c, 0xc4, 0x3e,
  0x22, 0x89, 0x08, 0x3e, 0xb7, 0x26, 0x18, 0xbe, 0x53, 0x94, 0x97, 0x3e,
  0x58, 0x6d, 0x50, 0x3d, 0xe0, 0xa2, 0x4b, 0x3c, 0xf6, 0x3f, 0x6a, 0x3e,
  0x42, 0x31, 0x87, 0xbe, 0x9c, 0xc8, 0x24, 0xbe, 0x98, 0xc6, 0x94, 0xbe,
  0xb0, 0x8f, 0x9d, 0xbe, 0x00, 0x5a, 0xd8, 0xbd, 0xec, 0xcb, 0x7b, 0xbe,
  0x1b, 0x33, 0x90, 0x3e, 0x9d, 0x36, 0xc2, 0xbe, 0x40, 0x15, 0x8f, 0xbe,
  0x77, 0x72, 0x9b, 0x3e, 0x2d, 0xca, 0xd9, 0x3e, 0x10, 0x65, 0x76, 0xbd,
  0xe8, 0x21, 0x86, 0xbd, 0x77, 0x18, 0x84, 0x3e, 0x2e, 0x6f, 0x8f, 0xbe,
  0xc3, 0xed, 0x2a, 0x3e, 0x90, 0xf4, 0xb0, 0x3c, 0xaf, 0x89, 0xa4, 0x3d,
  0xd5, 0xe7, 0x46, 0xbf, 0x32, 0xc2, 0x49, 0x3e, 0x9b, 0x4e, 0xda, 0x3e,
  0x23, 0x7e, 0x38, 0xbf, 0x74, 0x55, 0xa6, 0xbe, 0x91, 0x72, 0xdc, 0xbd,
  0xf1, 0x5e, 0xef, 0xc0, 0xf6, 0x4c, 0x18, 0xc0, 0x46, 0x90, 0x2a, 0x3e,
  0xfb, 0x5e, 0x84, 0xbd, 0xf4, 0x59, 0xdb, 0xbe, 0x2d, 0x0f, 0xb9, 0xbe,
  0xa1, 0xda, 0xd4, 0x3e, 0xf9, 0x55, 0xa5, 0x3e, 0xb7, 0x77, 0x8d, 0xbe,
  0xe0, 0x68, 0x1f, 0xbe, 0x7b, 0xe0, 0xe3, 0x3f, 0xad, 0x0a, 0x79, 0xc0,
  0x10, 0x1e, 0xb8, 0xbc, 0xcc, 0xa9, 0xad, 0x3d, 0x05, 0x55, 0x9e, 0xbe,
  0x63, 0xc2, 0x01, 0x40, 0x1a, 0x51, 0x8a, 0xbf, 0xdc, 0x17, 0x25, 0x3f,
  0x53, 0x44, 0xd8, 0x3e, 0x03, 0x4c, 0x5e, 0x40, 0xed, 0xc2, 0x87, 0xbe,
  0x22, 0x0c, 0xc9, 0xbe, 0x12, 0x7d, 0x36, 0x3e, 0xb4, 0xd8, 0x9a, 0x3d,
  0xe0, 0xcf, 0x88, 0xbe, 0xe0, 0xfe, 0xc7, 0xbd, 0x31, 0x63, 0x9b, 0xbe,
  0x7e, 0x05, 0x85, 0xba, 0x1b, 0x9e, 0x91, 0x3e, 0x2a, 0x38, 0x9f, 0x3e,
  0x60, 0xcf, 0x2e, 0xbc, 0x09, 0x8c, 0x5f, 0xbe, 0x67, 0x92, 0xf8, 0xbe,
  0x95, 0xf6, 0x5d, 0xbe, 0x21, 0x51, 0xa9, 0x3e, 0xc4, 0x52, 0x5e, 0xbc,
  0xce, 0xe0, 0x55, 0xbe, 0xcc, 0x7f, 0x26, 0xbe, 0xb6, 0x36, 0x48, 0x3e,
  0xd1, 0x7e, 0x9e, 0xbe, 0xf0, 0x02, 0xd6, 0x3e, 0x9c, 0x01, 0xcf, 0x3d,
  0x50, 0x43, 0xb7, 0x3e, 0xed, 0xed, 0xd7, 0x3e, 0x68, 0x34, 0xb9, 0xbd,
  0xc0, 0xbe, 0xcd, 0xbd, 0x18, 0xf0, 0x3b, 0xbe, 0xcd, 0xbb, 0xd0, 0x3e,
  0xf2, 0xc8, 0xc9, 0x3d, 0xe5, 0x9b, 0xb6, 0x3d, 0x58, 0xb9, 0x0a, 0xbe,
  0x23, 0x3c, 0x2a, 0xbd, 0xe8, 0xff, 0x68, 0xbe, 0xfe, 0x6f, 0x53, 0xbe,
  0x69, 0xf2, 0xd8, 0x3e, 0x4a, 0x4c, 0x3d, 0x3e, 0xc2, 0xbe, 0xcb, 0x3e,
  0x3c, 0x89, 0x83, 0xbe, 0xe1, 0x55, 0xbf, 0xbf, 0x50, 0xae, 0x58, 0x3d,
  0xa0, 0x28, 0x9c, 0xbc, 0x65, 0x2d, 0x95, 0x3e, 0xf9, 0xf0, 0x97, 0x3e,
  0x8a, 0xfc, 0xa0, 0xbe, 0xa4, 0x01, 0x77, 0xc0, 0xc5, 0x31, 0x96, 0xbe,
  0xd8, 0xf0, 0xb2, 0xbd, 0xd6, 0xcb, 0x35, 0xbf, 0x96, 0x67, 0x41, 0x3e,
  0x6c, 0x87, 0x23, 0xbe, 0x42, 0x20, 0xd4, 0xbe, 0x1f, 0xe7, 0x95, 0xbe,
  0xd2, 0x31, 0x4c, 0xbe, 0x9c, 0x78, 0x01, 0x3e, 0xb2, 0x7c, 0x38, 0x3f,
  0x4f, 0xdf, 0x49, 0x3e, 0x22, 0x66, 0x09, 0x3e, 0xfe, 0x1a, 0xb4, 0xbc,
  0xb8, 0xd3, 0x0a, 0xbd, 0x78, 0x4c, 0x9d, 0x3e, 0x37, 0x78, 0x45, 0xbf,
  0x0e, 0x10, 0x30, 0xbf, 0x1d, 0x65, 0xbe, 0x3e, 0xfb, 0x50, 0x9c, 0xbf,
  0x2a, 0xce, 0x16, 0x3e, 0x92, 0xa8, 0x3e, 0xbe, 0x5f, 0x3e, 0x6f, 0xbe,
  0x28, 0xd9, 0x22, 0xbe, 0x38, 0x6f, 0x85, 0x3e, 0x6c, 0xac, 0xa5, 0xbe,
  0xa1, 0x74, 0x50, 0xbf, 0x7b, 0x91, 0xb6, 0xbe, 0xf4, 0x68, 0x2c, 0xbe,
  0xa1, 0x53, 0x4a, 0x3e, 0xd2, 0x03, 0x28, 0x3e, 0xaf, 0xaa, 0x3e, 0xbe,
  0xb4, 0x0a, 0x4a, 0x3e, 0x27, 0x78, 0x08, 0x3f, 0x83, 0xf9, 0x8f, 0x3e,
  0x5d, 0x64, 0x93, 0xbe, 0x12, 0x78, 0xcd, 0xbe, 0x62, 0xf4, 0x50, 0x3e,
  0x54, 0xe9, 0x07, 0xbe, 0x30, 0x18, 0xe9, 0xbd, 0x76, 0xf4, 0x2c, 0x3e,
  0x93, 0x9e, 0x89, 0x3e, 0xf8, 0x1e, 0xa7, 0xbe, 0xbe, 0x0f, 0xc3, 0xbe,
  0x02, 0x62, 0x07, 0xbe, 0x58, 0x45, 0x65, 0x3d, 0x38, 0x63, 0x58, 0xbd,
  0x18, 0x0b, 0x37, 0xbe, 0xad, 0x03, 0xaa, 0x3e, 0x6c, 0xf8, 0xd2, 0xbd,
  0xf7, 0x14, 0xc3, 0x3e, 0x1e, 0x8e, 0xb9, 0xbe, 0x61, 0xc9, 0xa3, 0x3e,
  0x38, 0x70, 0xf9, 0xbd, 0xff, 0x06, 0xab, 0x3e, 0xa8, 0xf6, 0x3b, 0x3d,
  0xb5, 0x45, 0x01, 0x3e, 0x3a, 0x0a, 0xfb, 0x3d, 0x77, 0xe8, 0x4a, 0x3f,
  0x90, 0xca, 0x8a, 0xbf, 0x21, 0x4f, 0xd1, 0xbe, 0x14, 0x05, 0x38, 0x3e,
  0x26, 0x7a, 0x6c, 0x3e, 0x53, 0x00, 0x6b, 0x3f, 0xb0, 0x63, 0x31, 0x3d,
  0xc1, 0x8d, 0x20, 0x3f, 0xe0, 0xbd, 0xa0, 0x3c, 0x25, 0xdc, 0x84, 0x3f,
  0x86, 0xf2, 0x14, 0x3e, 0xfe, 0x42, 0xa3, 0xbe, 0x16, 0x9d, 0x25, 0xbe,
  0x98, 0x29, 0x8e, 0xbe, 0xc9, 0x50, 0xf2, 0x3d, 0xac, 0x45, 0x5d, 0xbe,
  0x2b, 0xb6, 0xca, 0xbe, 0xcf, 0xfe, 0x0c, 0x3f, 0xbd, 0x11, 0xd7, 0xbe,
  0xf1, 0x03, 0x21, 0x3d, 0x40, 0x70, 0xfb, 0x3b, 0x09, 0x8b, 0x21, 0x3f,
  0xf0, 0x05, 0x9e, 0xc0, 0x20, 0x39, 0x43, 0xbf, 0xf8, 0x4d, 0x86, 0xbd,
  0xe5, 0x3e, 0x8f, 0xbf, 0x08, 0xcd, 0x5c, 0xbd, 0x56, 0xbb, 0x02, 0x3e,
  0xb7, 0x1e, 0xab, 0x3e, 0x18, 0xf7, 0x82, 0x3d, 0xa8, 0x4d, 0xab, 0xbe,
  0x5a, 0xd2, 0x14, 0x3e, 0x33, 0xae, 0xc1, 0xbd, 0xb6, 0x32, 0x85, 0xbe,
  0x27, 0xf3, 0x55, 0xbe, 0x6b, 0xfe, 0x93, 0x3e, 0x5f, 0x74, 0x91, 0x3e,
  0xd3, 0xca, 0x2c, 0xbd, 0x66, 0x26, 0x5c, 0xbe, 0x92, 0x31, 0x1e, 0xbe,
  0x40, 0xd8, 0x88, 0xbc, 0xb0, 0xab, 0xcd, 0x3c, 0xaa, 0xcb, 0x62, 0x3e,
  0x9b, 0x43, 0xca, 0xbe, 0xa0, 0x5c, 0x03, 0xbd, 0xfc, 0x1e, 0xca, 0x3e,
  0x01, 0x64, 0x14, 0x3f, 0x6c, 0x00, 0x26, 0xbe, 0x90, 0x32, 0x21, 0xbf,
  0x52, 0x57, 0x26, 0x3f, 0x4c, 0xfe, 0xa5, 0xbe, 0x96, 0xa5, 0x3a, 0x3d,
  0xac, 0x06, 0x69, 0xbe, 0xb0, 0xa0, 0x39, 0xbf, 0x51, 0x97, 0x2f, 0x40,
  0x16, 0xe5, 0x99, 0x3e, 0xb0, 0x6e, 0xfb, 0xbc, 0x18, 0xff, 0x8b, 0xbf,
  0x00, 0x74, 0x6d, 0xbc, 0x60, 0x6d, 0xcf, 0xbd, 0xed, 0x79, 0x94, 0x3e,
  0xbe, 0xf8, 0x25, 0x3e, 0x16, 0x8f, 0x5a, 0xbf, 0xa0, 0x49, 0x2e, 0x3d,
  0x46, 0x18, 0xb2, 0xbd, 0xbd, 0x53, 0x31, 0x3d, 0x68, 0x77, 0x21, 0xbd,
  0x59, 0x03, 0x63, 0xbe, 0x04, 0x06, 0xb2, 0xbe, 0xe1, 0x78, 0xd1, 0x3e,
  0x01, 0xb9, 0xab, 0xbe, 0xdb, 0x05, 0x87, 0xbb, 0xeb, 0xc1, 0xdc, 0x3e,
  0xf3, 0x6d, 0x7e, 0xbe, 0x98, 0x6c, 0xb1, 0xbd, 0xd6, 0xb6, 0xa8, 0xbe,
  0x36, 0x92, 0x73, 0x3e, 0x00, 0x00, 0x00, 0x00, 0x86, 0xfe, 0xff, 0xff,
  0x04, 0x00, 0x00, 0x00, 0x00, 0x01, 0x00, 0x00, 0xb7, 0xea, 0x68, 0xbe,
  0x5e, 0xc2, 0x92, 0x3c, 0x82, 0x20, 0xa2, 0xbe, 0x58, 0x21, 0xae, 0xb9,
  0x20, 0xaa, 0x4b, 0x3a, 0xe8, 0x6a, 0x58, 0xbd, 0xce, 0x5e, 0x3f, 0x3e,
  0x46, 0xec, 0xda, 0xbd, 0x26, 0x82, 0x20, 0x3d, 0x50, 0x80, 0xa7, 0xbe,
  0x4b, 0xb6, 0x0d, 0x3e, 0xf9, 0x5c, 0xed, 0xbd, 0xc2, 0xc4, 0x48, 0x3c,
  0x3b, 0x52, 0xa7, 0xbf, 0x3b, 0x19, 0x12, 0xbf, 0xb0, 0xa0, 0x1f, 0x3b,
  0x20, 0x0d, 0x94, 0xbc, 0x4e, 0xa7, 0x79, 0xbb, 0x93, 0x06, 0x5d, 0x3f,
  0x83, 0x3b, 0xb2, 0xbd, 0xf8, 0xe0, 0x39, 0x3e, 0x8c, 0xc1, 0x8b, 0xbe,
  0x0d, 0x19, 0x9a, 0xbe, 0x08, 0xc7, 0xfb, 0xbd, 0xc4, 0x6e, 0x1a, 0xbe,
  0x8d, 0x82, 0x1f, 0xbf, 0xe4, 0x16, 0x95, 0xbd, 0xab, 0xc5, 0x0e, 0xbe,
  0x36, 0x1c, 0x27, 0xbe, 0xe4, 0xbc, 0xab, 0x3e, 0x80, 0x0f, 0xac, 0xbd,
  0xa4, 0x42, 0xd5, 0xbe, 0x68, 0xa8, 0x61, 0x39, 0x72, 0x19, 0x7e, 0x3f,
  0xe9, 0x8f, 0x0f, 0xbf, 0xdf, 0x3e, 0x8f, 0xbb, 0xce, 0x15, 0x7e, 0xba,
  0x84, 0x14, 0x3e, 0x3b, 0xe0, 0xfc, 0x74, 0xbe, 0x8a, 0xf0, 0xa9, 0xbb,
  0x06, 0xc7, 0x24, 0xbe, 0x83, 0x26, 0x88, 0xbe, 0x84, 0xed, 0xe4, 0xbd,
  0x8d, 0xbc, 0x23, 0xbe, 0x18, 0x29, 0x83, 0x3d, 0x9c, 0x35, 0x80, 0xbe,
  0xd8, 0xce, 0x7e, 0x3e, 0x85, 0x76, 0xe8, 0xbe, 0xa8, 0xb5, 0xda, 0xbc,
  0x66, 0xd9, 0x51, 0x3d, 0x26, 0x97, 0x3f, 0xbe, 0xea, 0xaa, 0x9e, 0xbd,
  0xf0, 0xe7, 0xd6, 0x3d, 0x2a, 0x17, 0x90, 0xbe, 0x68, 0x04, 0xa7, 0xbe,
  0x8c, 0xc3, 0xa6, 0xbd, 0x64, 0x6a, 0x42, 0xbe, 0x2b, 0x36, 0x06, 0xbf,
  0xf0, 0x45, 0x5c, 0x3d, 0x6e, 0xba, 0xa6, 0xbe, 0x41, 0x03, 0x07, 0xbf,
  0x18, 0x4d, 0x80, 0x3e, 0x7c, 0x0a, 0x27, 0xbe, 0x04, 0xc3, 0x9c, 0xbe,
  0x00, 0x00, 0x00, 0x00, 0x96, 0xff, 0xff, 0xff, 0x04, 0x00, 0x00, 0x00,
  0x04, 0x00, 0x00, 0x00, 0xf6, 0x70, 0x16, 0x41, 0xa6, 0xff, 0xff, 0xff,
  0x04, 0x00, 0x00, 0x00, 0x40, 0x00, 0x00, 0x00, 0x2e, 0xfd, 0x0c, 0x41,
  0x3e, 0xa8, 0x0c, 0x41, 0x00, 0x00, 0x00, 0x00, 0xee, 0x5c, 0x45, 0xc0,
  0x1f, 0x70, 0xed, 0x3e, 0x19, 0x53, 0x44, 0xbd, 0x92, 0x6c, 0x09, 0x41,
  0x03, 0xe0, 0x96, 0x40, 0x4a, 0x38, 0x47, 0xc0, 0xb4, 0xfa, 0x5d, 0xbf,
  0x00, 0x00, 0x00, 0x00, 0x8a, 0xe3, 0x2c, 0xc0, 0x23, 0xec, 0x1c, 0xc0,
  0x27, 0x6e, 0x01, 0xbd, 0xb0, 0x8c, 0xfc, 0xc0, 0x8c, 0x29, 0x99, 0xbf,
  0x00, 0x00, 0x00, 0x00, 0x00, 0x00, 0x00, 0x00, 0x00, 0x00, 0x00, 0x00,
  0x00, 0x00, 0x06, 0x00, 0x08, 0x00, 0x04, 0x00, 0x06, 0x00, 0x00, 0x00,
  0x04, 0x00, 0x00, 0x00, 0x40, 0x00, 0x00, 0x00, 0x9e, 0x69, 0xa7, 0xbd,
  0x6a, 0xd9, 0x59, 0x40, 0xcf, 0xbf, 0x73, 0xbe, 0x99, 0xcf, 0x38, 0x41,
  0x62, 0x7d, 0x64, 0x40, 0x00, 0x00, 0x00, 0x00, 0x5d, 0x5b, 0x8a, 0x40,
  0x00, 0x00, 0x00, 0x00, 0x71, 0xcb, 0x91, 0x40, 0x35, 0x99, 0xb2, 0x40,
  0x3c, 0xda, 0xa0, 0x40, 0x00, 0x00, 0x00, 0x00, 0x6d, 0x1d, 0xea, 0x40,
  0x00, 0x00, 0x00, 0x00, 0x00, 0x00, 0x00, 0x00, 0x00, 0x00, 0x00, 0x00,
  0x00, 0x00, 0x00, 0x00, 0x00, 0x00, 0x00, 0x00, 0x00, 0x00, 0x00, 0x00,
  0x24, 0xfb, 0xff, 0xff, 0x00, 0x00, 0x00, 0x00, 0x00, 0x00, 0x00, 0x00,
  0x00, 0x00, 0x00, 0x00, 0x34, 0xfb, 0xff, 0xff, 0x00, 0x00, 0x00, 0x00,
  0x00, 0x00, 0x00, 0x00, 0x0f, 0x00, 0x00, 0x00, 0x4d, 0x4c, 0x49, 0x52,
  0x20, 0x43, 0x6f, 0x6e, 0x76, 0x65, 0x72, 0x74, 0x65, 0x64, 0x2e, 0x00,
  0x01, 0x00, 0x00, 0x00, 0x14, 0x00, 0x00, 0x00, 0x00, 0x00, 0x0e, 0x00,
  0x18, 0x00, 0x04, 0x00, 0x08, 0x00, 0x0c, 0x00, 0x10, 0x00, 0x14, 0x00,
  0x0e, 0x00, 0x00, 0x00, 0x00, 0x01, 0x00, 0x00, 0xf4, 0x00, 0x00, 0x00,
  0xe8, 0x00, 0x00, 0x00, 0x14, 0x00, 0x00, 0x00, 0x04, 0x00, 0x00, 0x00,
  0x04, 0x00, 0x00, 0x00, 0x6d, 0x61, 0x69, 0x6e, 0x00, 0x00, 0x00, 0x00,
  0x03, 0x00, 0x00, 0x00, 0x90, 0x00, 0x00, 0x00, 0x48, 0x00, 0x00, 0x00,
  0x04, 0x00, 0x00, 0x00, 0xce, 0xff, 0xff, 0xff, 0x00, 0x00, 0x00, 0x08,
  0x18, 0x00, 0x00, 0x00, 0x0c, 0x00, 0x00, 0x00, 0x04, 0x00, 0x00, 0x00,
  0xb4, 0xfb, 0xff, 0xff, 0x01, 0x00, 0x00, 0x00, 0x09, 0x00, 0x00, 0x00,
  0x03, 0x00, 0x00, 0x00, 0x08, 0x00, 0x00, 0x00, 0x06, 0x00, 0x00, 0x00,
  0x03, 0x00, 0x00, 0x00, 0x00, 0x00, 0x0e, 0x00, 0x14, 0x00, 0x00, 0x00,
  0x08, 0x00, 0x0c, 0x00, 0x07, 0x00, 0x10, 0x00, 0x0e, 0x00, 0x00, 0x00,
  0x00, 0x00, 0x00, 0x08, 0x1c, 0x00, 0x00, 0x00, 0x10, 0x00, 0x00, 0x00,
  0x04, 0x00, 0x00, 0x00, 0xba, 0xff, 0xff, 0xff, 0x00, 0x00, 0x00, 0x01,
  0x01, 0x00, 0x00, 0x00, 0x08, 0x00, 0x00, 0x00, 0x03, 0x00, 0x00, 0x00,
  0x07, 0x00, 0x00, 0x00, 0x05, 0x00, 0x00, 0x00, 0x02, 0x00, 0x00, 0x00,
  0x00, 0x00, 0x0e, 0x00, 0x16, 0x00, 0x00, 0x00, 0x08, 0x00, 0x0c, 0x00,
  0x07, 0x00, 0x10, 0x00, 0x0e, 0x00, 0x00, 0x00, 0x00, 0x00, 0x00, 0x08,
  0x24, 0x00, 0x00, 0x00, 0x18, 0x00, 0x00, 0x00, 0x0c, 0x00, 0x00, 0x00,
  0x00, 0x00, 0x06, 0x00, 0x08, 0x00, 0x07, 0x00, 0x06, 0x00, 0x00, 0x00,
  0x00, 0x00, 0x00, 0x01, 0x01, 0x00, 0x00, 0x00, 0x07, 0x00, 0x00, 0x00,
  0x03, 0x00, 0x00, 0x00, 0x00, 0x00, 0x00, 0x00, 0x04, 0x00, 0x00, 0x00,
  0x01, 0x00, 0x00, 0x00, 0x01, 0x00, 0x00, 0x00, 0x09, 0x00, 0x00, 0x00,
  0x01, 0x00, 0x00, 0x00, 0x00, 0x00, 0x00, 0x00, 0x0a, 0x00, 0x00, 0x00,
  0x68, 0x03, 0x00, 0x00, 0xf8, 0x02, 0x00, 0x00, 0x8c, 0x02, 0x00, 0x00,
  0x30, 0x02, 0x00, 0x00, 0xec, 0x01, 0x00, 0x00, 0xa4, 0x01, 0x00, 0x00,
  0x5c, 0x01, 0x00, 0x00, 0xd8, 0x00, 0x00, 0x00, 0x4c, 0x00, 0x00, 0x00,
  0x04, 0x00, 0x00, 0x00, 0xd4, 0xfc, 0xff, 0xff, 0x34, 0x00, 0x00, 0x00,
  0x0a, 0x00, 0x00, 0x00, 0x1c, 0x00, 0x00, 0x00, 0x14, 0x00, 0x00, 0x00,
  0x04, 0x00, 0x00, 0x00, 0x02, 0x00, 0x00, 0x00, 0xff, 0xff, 0xff, 0xff,
  0x01, 0x00, 0x00, 0x00, 0xc0, 0xfc, 0xff, 0xff, 0x08, 0x00, 0x00, 0x00,
  0x49, 0x64, 0x65, 0x6e, 0x74, 0x69, 0x74, 0x79, 0x00, 0x00, 0x00, 0x00,
  0x02, 0x00, 0x00, 0x00, 0x01, 0x00, 0x00, 0x00, 0x01, 0x00, 0x00, 0x00,
  0x18, 0xfd, 0xff, 0xff, 0x78, 0x00, 0x00, 0x00, 0x09, 0x00, 0x00, 0x00,
  0x1c, 0x00, 0x00, 0x00, 0x14, 0x00, 0x00, 0x00, 0x04, 0x00, 0x00, 0x00,
  0x02, 0x00, 0x00, 0x00, 0xff, 0xff, 0xff, 0xff, 0x10, 0x00, 0x00, 0x00,
  0x04, 0xfd, 0xff, 0xff, 0x4c, 0x00, 0x00, 0x00, 0x73, 0x65, 0x71, 0x75,
  0x65, 0x6e, 0x74, 0x69, 0x61, 0x6c, 0x2f, 0x64, 0x65, 0x6e, 0x73, 0x65,
  0x5f, 0x31, 0x2f, 0x4d, 0x61, 0x74, 0x4d, 0x75, 0x6c, 0x3b, 0x73, 0x65,
  0x71, 0x75, 0x65, 0x6e, 0x74, 0x69, 0x61, 0x6c, 0x2f, 0x64, 0x65, 0x6e,
  0x73, 0x65, 0x5f, 0x31, 0x2f, 0x52, 0x65, 0x6c, 0x75, 0x3b, 0x73, 0x65,
  0x71, 0x75, 0x65, 0x6e, 0x74, 0x69, 0x61, 0x6c, 0x2f, 0x64, 0x65, 0x6e,
  0x73, 0x65, 0x5f, 0x31, 0x2f, 0x42, 0x69, 0x61, 0x73, 0x41, 0x64, 0x64,
  0x00, 0x00, 0x00, 0x00, 0x02, 0x00, 0x00, 0x00, 0x01, 0x00, 0x00, 0x00,
  0x10, 0x00, 0x00, 0x00, 0xa0, 0xfd, 0xff, 0xff, 0x70, 0x00, 0x00, 0x00,
  0x08, 0x00, 0x00, 0x00, 0x1c, 0x00, 0x00, 0x00, 0x14, 0x00, 0x00, 0x00,
  0x04, 0x00, 0x00, 0x00, 0x02, 0x00, 0x00, 0x00, 0xff, 0xff, 0xff, 0xff,
  0x10, 0x00, 0x00, 0x00, 0x8c, 0xfd, 0xff, 0xff, 0x46, 0x00, 0x00, 0x00,
  0x73, 0x65, 0x71, 0x75, 0x65, 0x6e, 0x74, 0x69, 0x61, 0x6c, 0x2f, 0x64,
  0x65, 0x6e, 0x73, 0x65, 0x2f, 0x4d, 0x61, 0x74, 0x4d, 0x75, 0x6c, 0x3b,
  0x73, 0x65, 0x71, 0x75, 0x65, 0x6e, 0x74, 0x69, 0x61, 0x6c, 0x2f, 0x64,
  0x65, 0x6e, 0x73, 0x65, 0x2f, 0x52, 0x65, 0x6c, 0x75, 0x3b, 0x73, 0x65,
  0x71, 0x75, 0x65, 0x6e, 0x74, 0x69, 0x61, 0x6c, 0x2f, 0x64, 0x65, 0x6e,
  0x73, 0x65, 0x2f, 0x42, 0x69, 0x61, 0x73, 0x41, 0x64, 0x64, 0x00, 0x00,
  0x02, 0x00, 0x00, 0x00, 0x01, 0x00, 0x00, 0x00, 0x10, 0x00, 0x00, 0x00,
  0x86, 0xfe, 0xff, 0xff, 0x34, 0x00, 0x00, 0x00, 0x07, 0x00, 0x00, 0x00,
  0x0c, 0x00, 0x00, 0x00, 0x04, 0x00, 0x00, 0x00, 0xfc, 0xfd, 0xff, 0xff,
  0x19, 0x00, 0x00, 0x00, 0x73, 0x65, 0x71, 0x75, 0x65, 0x6e, 0x74, 0x69,
  0x61, 0x6c, 0x2f, 0x64, 0x65, 0x6e, 0x73, 0x65, 0x5f, 0x32, 0x2f, 0x4d,
  0x61, 0x74, 0x4d, 0x75, 0x6c, 0x00, 0x00, 0x00, 0x02, 0x00, 0x00, 0x00,
  0x01, 0x00, 0x00, 0x00, 0x10, 0x00, 0x00, 0x00, 0xca, 0xfe, 0xff, 0xff,
  0x34, 0x00, 0x00, 0x00, 0x06, 0x00, 0x00, 0x00, 0x0c, 0x00, 0x00, 0x00,
  0x04, 0x00, 0x00, 0x00, 0x40, 0xfe, 0xff, 0xff, 0x19, 0x00, 0x00, 0x00,
  0x73, 0x65, 0x71, 0x75, 0x65, 0x6e, 0x74, 0x69, 0x61, 0x6c, 0x2f, 0x64,
  0x65, 0x6e, 0x73, 0x65, 0x5f, 0x31, 0x2f, 0x4d, 0x61, 0x74, 0x4d, 0x75,
  0x6c, 0x00, 0x00, 0x00, 0x02, 0x00, 0x00, 0x00, 0x10, 0x00, 0x00, 0x00,
  0x10, 0x00, 0x00, 0x00, 0x0e, 0xff, 0xff, 0xff, 0x30, 0x00, 0x00, 0x00,
  0x05, 0x00, 0x00, 0x00, 0x0c, 0x00, 0x00, 0x00, 0x04, 0x00, 0x00, 0x00,
  0x84, 0xfe, 0xff, 0xff, 0x17, 0x00, 0x00, 0x00, 0x73, 0x65, 0x71, 0x75,
  0x65, 0x6e, 0x74, 0x69, 0x61, 0x6c, 0x2f, 0x64, 0x65, 0x6e, 0x73, 0x65,
  0x2f, 0x4d, 0x61, 0x74, 0x4d, 0x75, 0x6c, 0x00, 0x02, 0x00, 0x00, 0x00,
  0x10, 0x00, 0x00, 0x00, 0x04, 0x00, 0x00, 0x00, 0x4e, 0xff, 0xff, 0xff,
  0x4c, 0x00, 0x00, 0x00, 0x04, 0x00, 0x00, 0x00, 0x0c, 0x00, 0x00, 0x00,
  0x04, 0x00, 0x00, 0x00, 0xc4, 0xfe, 0xff, 0xff, 0x32, 0x00, 0x00, 0x00,
  0x73, 0x65, 0x71, 0x75, 0x65, 0x6e, 0x74, 0x69, 0x61, 0x6c, 0x2f, 0x64,
  0x65, 0x6e, 0x73, 0x65, 0x5f, 0x32, 0x2f, 0x42, 0x69, 0x61, 0x73, 0x41,
  0x64, 0x64, 0x2f, 0x52, 0x65, 0x61, 0x64, 0x56, 0x61, 0x72, 0x69, 0x61,
  0x62, 0x6c, 0x65, 0x4f, 0x70, 0x2f, 0x72, 0x65, 0x73, 0x6f, 0x75, 0x72,
  0x63, 0x65, 0x00, 0x00, 0x01, 0x00, 0x00, 0x00, 0x01, 0x00, 0x00, 0x00,
  0xa6, 0xff, 0xff, 0xff, 0x4c, 0x00, 0x00, 0x00, 0x03, 0x00, 0x00, 0x00,
  0x0c, 0x00, 0x00, 0x00, 0x04, 0x00, 0x00, 0x00, 0x1c, 0xff, 0xff, 0xff,
  0x32, 0x00, 0x00, 0x00, 0x73, 0x65, 0x71, 0x75, 0x65, 0x6e, 0x74, 0x69,
  0x61, 0x6c, 0x2f, 0x64, 0x65, 0x6e, 0x73, 0x65, 0x5f, 0x31, 0x2f, 0x42,
  0x69, 0x61, 0x73, 0x41, 0x64, 0x64, 0x2f, 0x52, 0x65, 0x61, 0x64, 0x56,
  0x61, 0x72, 0x69, 0x61, 0x62, 0x6c, 0x65, 0x4f, 0x70, 0x2f, 0x72, 0x65,
  0x73, 0x6f, 0x75, 0x72, 0x63, 0x65, 0x00, 0x00, 0x01, 0x00, 0x00, 0x00,
  0x10, 0x00, 0x00, 0x00, 0x00, 0x00, 0x0e, 0x00, 0x14, 0x00, 0x04, 0x00,
  0x00, 0x00, 0x08, 0x00, 0x0c, 0x00, 0x10, 0x00, 0x0e, 0x00, 0x00, 0x00,
  0x4c, 0x00, 0x00, 0x00, 0x02, 0x00, 0x00, 0x00, 0x0c, 0x00, 0x00, 0x00,
  0x04, 0x00, 0x00, 0x00, 0x84, 0xff, 0xff, 0xff, 0x30, 0x00, 0x00, 0x00,
  0x73, 0x65, 0x71, 0x75, 0x65, 0x6e, 0x74, 0x69, 0x61, 0x6c, 0x2f, 0x64,
  0x65, 0x6e, 0x73, 0x65, 0x2f, 0x42, 0x69, 0x61, 0x73, 0x41, 0x64, 0x64,
  0x2f, 0x52, 0x65, 0x61, 0x64, 0x56, 0x61, 0x72, 0x69, 0x61, 0x62, 0x6c,
  0x65, 0x4f, 0x70, 0x2f, 0x72, 0x65, 0x73, 0x6f, 0x75, 0x72, 0x63, 0x65,
  0x00, 0x00, 0x00, 0x00, 0x01, 0x00, 0x00, 0x00, 0x10, 0x00, 0x00, 0x00,
  0x14, 0x00, 0x18, 0x00, 0x04, 0x00, 0x00, 0x00, 0x08, 0x00, 0x0c, 0x00,
  0x10, 0x00, 0x00, 0x00, 0x00, 0x00, 0x14, 0x00, 0x14, 0x00, 0x00, 0x00,
  0x38, 0x00, 0x00, 0x00, 0x01, 0x00, 0x00, 0x00, 0x20, 0x00, 0x00, 0x00,
  0x18, 0x00, 0x00, 0x00, 0x04, 0x00, 0x00, 0x00, 0x02, 0x00, 0x00, 0x00,
  0xff, 0xff, 0xff, 0xff, 0x04, 0x00, 0x00, 0x00, 0x04, 0x00, 0x04, 0x00,
  0x04, 0x00, 0x00, 0x00, 0x0b, 0x00, 0x00, 0x00, 0x64, 0x65, 0x6e, 0x73,
  0x65, 0x5f, 0x69, 0x6e, 0x70, 0x75, 0x74, 0x00, 0x02, 0x00, 0x00, 0x00,
  0x01, 0x00, 0x00, 0x00, 0x04, 0x00, 0x00, 0x00, 0x01, 0x00, 0x00, 0x00,
  0x10, 0x00, 0x00, 0x00, 0x0c, 0x00, 0x10, 0x00, 0x07, 0x00, 0x00, 0x00,
  0x08, 0x00, 0x0c, 0x00, 0x0c, 0x00, 0x00, 0x00, 0x00, 0x00, 0x00, 0x09,
  0x09, 0x00, 0x00, 0x00, 0x09, 0x00, 0x00, 0x00
};

#endif //THERMO_MODEL_H
